{
  "version": "1.0",
  "truncation": null,
  "padding": null,
  "added_tokens": [
    {
      "id": 1021,
      "content": "<|endoftext|>",
      "single_word": false,
      "lstrip": false,
      "rstrip": false,
      "normalized": false,
      "special": true
    },
    {
      "id": 1022,
      "content": "<|im_start|>",
      "single_word": false,
      "lstrip": false,
      "rstrip": false,
      "normalized": false,
      "special": true
    },
    {
      "id": 1023,
      "content": "<|im_end|>",
      "single_word": false,
      "lstrip": false,
      "rstrip": false,
      "normalized": false,
      "special": true
    }
  ],
  "normalizer": null,
  "pre_tokenizer": {
    "type": "ByteLevel",
    "add_prefix_space": false,
    "trim_offsets": true,
    "use_regex": true
  },
  "post_processor": {
    "type": "ByteLevel",
    "add_prefix_space": true,
    "trim_offsets": false,
    "use_regex": true
  },
  "decoder": {
    "type": "ByteLevel",
    "add_prefix_space": true,
    "trim_offsets": true,
    "use_regex": true
  },
  "model": {
    "type": "BPE",
    "dropout": null,
    "unk_token": null,
    "continuing_subword_prefix": null,
    "end_of_word_suffix": null,
    "fuse_unk": false,
    "byte_fallback": false,
    "ignore_merges": false,
    "vocab": {
      "!": 0,
      "\"": 1,
      "#": 2,
      "$": 3,
      "%": 4,
      "&": 5,
      "'": 6,
      "(": 7,
      ")": 8,
      "*": 9,
      "+": 10,
      ",": 11,
      "-": 12,
      ".": 13,
      "/": 14,
      "0": 15,
      "1": 16,
      "2": 17,
      "3": 18,
      "4": 19,
      "5": 20,
      "6": 21,
      "7": 22,
      "8": 23,
      "9": 24,
      ":": 25,
      ";": 26,
      "<": 27,
      "=": 28,
      ">": 29,
      "?": 30,
      "@": 31,
      "A": 32,
      "B": 33,
      "C": 34,
      "D": 35,
      "E": 36,
      "F": 37,
      "G": 38,
      "H": 39,
      "I": 40,
      "J": 41,
      "K": 42,
      "L": 43,
      "M": 44,
      "N": 45,
      "O": 46,
      "P": 47,
      "Q": 48,
      "R": 49,
      "S": 50,
      "T": 51,
      "U": 52,
      "V": 53,
      "W": 54,
      "X": 55,
      "Y": 56,
      "Z": 57,
      "[": 58,
      "\\": 59,
      "]": 60,
      "^": 61,
      "_": 62,
      "`": 63,
      "a": 64,
      "b": 65,
      "c": 66,
      "d": 67,
      "e": 68,
      "f": 69,
      "g": 70,
      "h": 71,
      "i": 72,
      "j": 73,
      "k": 74,
      "l": 75,
      "m": 76,
      "n": 77,
      "o": 78,
      "p": 79,
      "q": 80,
      "r": 81,
      "s": 82,
      "t": 83,
      "u": 84,
      "v": 85,
      "w": 86,
      "x": 87,
      "y": 88,
      "z": 89,
      "{": 90,
      "|": 91,
      "}": 92,
      "~": 93,
      "¡": 94,
      "¢": 95,
      "£": 96,
      "¤": 97,
      "¥": 98,
      "¦": 99,
      "§": 100,
      "¨": 101,
      "©": 102,
      "ª": 103,
      "«": 104,
      "¬": 105,
      "®": 106,
      "¯": 107,
      "°": 108,
      "±": 109,
      "²": 110,
      "³": 111,
      "´": 112,
      "µ": 113,
      "¶": 114,
      "·": 115,
      "¸": 116,
      "¹": 117,
      "º": 118,
      "»": 119,
      "¼": 120,
      "½": 121,
      "¾": 122,
      "¿": 123,
      "À": 124,
      "Á": 125,
      "Â": 126,
      "Ã": 127,
      "Ä": 128,
      "Å": 129,
      "Æ": 130,
      "Ç": 131,
      "È": 132,
      "É": 133,
      "Ê": 134,
      "Ë": 135,
      "Ì": 136,
      "Í": 137,
      "Î": 138,
      "Ï": 139,
      "Ð": 140,
      "Ñ": 141,
      "Ò": 142,
      "Ó": 143,
      "Ô": 144,
      "Õ": 145,
      "Ö": 146,
      "×": 147,
      "Ø": 148,
      "Ù": 149,
      "Ú": 150,
      "Û": 151,
      "Ü": 152,
      "Ý": 153,
      "Þ": 154,
      "ß": 155,
      "à": 156,
      "á": 157,
      "â": 158,
      "ã": 159,
      "ä": 160,
      "å": 161,
      "æ": 162,
      "ç": 163,
      "è": 164,
      "é": 165,
      "ê": 166,
      "ë": 167,
      "ì": 168,
      "í": 169,
      "î": 170,
      "ï": 171,
      "ð": 172,
      "ñ": 173,
      "ò": 174,
      "ó": 175,
      "ô": 176,
      "õ": 177,
      "ö": 178,
      "÷": 179,
      "ø": 180,
      "ù": 181,
      "ú": 182,
      "û": 183,
      "ü": 184,
      "ý": 185,
      "þ": 186,
      "ÿ": 187,
      "Ā": 188,
      "ā": 189,
      "Ă": 190,
      "ă": 191,
      "Ą": 192,
      "ą": 193,
      "Ć": 194,
      "ć": 195,
      "Ĉ": 196,
      "ĉ": 197,
      "Ċ": 198,
      "ċ": 199,
      "Č": 200,
      "č": 201,
      "Ď": 202,
      "ď": 203,
      "Đ": 204,
      "đ": 205,
      "Ē": 206,
      "ē": 207,
      "Ĕ": 208,
      "ĕ": 209,
      "Ė": 210,
      "ė": 211,
      "Ę": 212,
      "ę": 213,
      "Ě": 214,
      "ě": 215,
      "Ĝ": 216,
      "ĝ": 217,
      "Ğ": 218,
      "ğ": 219,
      "Ġ": 220,
      "ġ": 221,
      "Ģ": 222,
      "ģ": 223,
      "Ĥ": 224,
      "ĥ": 225,
      "Ħ": 226,
      "ħ": 227,
      "Ĩ": 228,
      "ĩ": 229,
      "Ī": 230,
      "ī": 231,
      "Ĭ": 232,
      "ĭ": 233,
      "Į": 234,
      "į": 235,
      "İ": 236,
      "ı": 237,
      "Ĳ": 238,
      "ĳ": 239,
      "Ĵ": 240,
      "ĵ": 241,
      "Ķ": 242,
      "ķ": 243,
      "ĸ": 244,
      "Ĺ": 245,
      "ĺ": 246,
      "Ļ": 247,
      "ļ": 248,
      "Ľ": 249,
      "ľ": 250,
      "Ŀ": 251,
      "ŀ": 252,
      "Ł": 253,
      "ł": 254,
      "Ń": 255,
      "ĠĠ": 256,
      "Ġt": 257,
      "Ġa": 258,
      "he": 259,
      "en": 260,
      "in": 261,
      "es": 262,
      "or": 263,
      "er": 264,
      "Ġs": 265,
      "Ġw": 266,
      "ĠĠĠĠ": 267,
      "at": 268,
      "ĠĠĠ": 269,
      "Ġthe": 270,
      "Ġb": 271,
      "Ġf": 272,
      "Ġm": 273,
      "ed": 274,
      "ðŁ": 275,
      "an": 276,
      "le": 277,
      "on": 278,
      "re": 279,
      "as": 280,
      "it": 281,
      "ĠðŁ": 282,
      "Ġ1": 283,
      "Ġe": 284,
      "Ġn": 285,
      "Ġan": 286,
      "ou": 287,
      "Ġin": 288,
      "ar": 289,
      "Ġ=": 290,
      "ad": 291,
      "Ġth": 292,
      "()": 293,
      "Ġd": 294,
      "Ġk": 295,
      "Ġ{": 296,
      "ens": 297,
      "ac": 298,
      "im": 299,
      "pe": 300,
      "Ġc": 301,
      "Ġh": 302,
      "Ġp": 303,
      "ĠĠĠĠĠĠĠ": 304,
      "ht": 305,
      "lo": 306,
      "om": 307,
      "ot": 308,
      "yt": 309,
      "ãģ": 310,
      "Ġto": 311,
      "ent": 312,
      "ing": 313,
      "Ġand": 314,
      "al": 315,
      "de": 316,
      "ver": 317,
      "Ġ*": 318,
      "Ġi": 319,
      "ĠÎ": 320,
      "::": 321,
      "ape": 322,
      "qu": 323,
      "ve": 324,
      "Ġ+": 325,
      "Ġ0": 326,
      "Ġg": 327,
      "Ġr": 328,
      "Ġu": 329,
      "Ġle": 330,
      "Ġon": 331,
      "ensor": 332,
      "\":": 333,
      "ai": 334,
      "am": 335,
      "ay": 336,
      "ex": 337,
      "ght": 338,
      "hape": 339,
      "ion": 340,
      "ken": 341,
      "of": 342,
      "um": 343,
      "Ð¸": 344,
      "ÑĢ": 345,
      "Ø§": 346,
      "ãĢ": 347,
      "ãĤ": 348,
      "ãĥ": 349,
      "Ġ\"": 350,
      "Ġ(": 351,
      "Ġ2": 352,
      "Ġx": 353,
      "Ġ}": 354,
      "Ġit": 355,
      "Ġar": 356,
      "Ġwe": 357,
      "Ġbe": 358,
      "Ġbyt": 359,
      "Ġfor": 360,
      "Ġke": 361,
      "Ġlet": 362,
      "Ġbytes": 363,
      ");": 364,
      "00": 365,
      "ab": 366,
      "ax": 367,
      "ce": 368,
      "ec": 369,
      "ic": 370,
      "iz": 371,
      "ight": 372,
      "ll": 373,
      "max": 374,
      "shape": 375,
      "ur": 376,
      "Ġl": 377,
      "ĠÐ": 378,
      "Ġhe": 379,
      "Ġre": 380,
      "Ġas": 381,
      "Ġst": 382,
      "ath": 383,
      "Ġme": 384,
      "Ġthat": 385,
      "Ġis": 386,
      "Ġus": 387,
      "ãĢĤ": 388,
      "(\"": 389,
      "02": 390,
      "><": 391,
      "The": 392,
      "ak": 393,
      "bo": 394,
      "bed": 395,
      "cc": 396,
      "ds": 397,
      "dim": 398,
      "et": 399,
      "for": 400,
      "ile": 401,
      "ld": 402,
      "mbed": 403,
      "ode": 404,
      "ps": 405,
      "pt": 406,
      "pac": 407,
      "ro": 408,
      "rom": 409,
      "to": 410,
      "ue": 411,
      "ul": 412,
      "un": 413,
      "ut": 414,
      "Ð°": 415,
      "Ðµ": 416,
      "Ð¾": 417,
      "ÑĤ": 418,
      "Ġ&": 419,
      "Ġ-": 420,
      "ĠB": 421,
      "Ġj": 422,
      "Ġv": 423,
      "Ġou": 424,
      "Ġqu": 425,
      "Ġat": 426,
      "ords": 427,
      "ery": 428,
      "Ġwas": 429,
      "Ġfo": 430,
      "and": 431,
      "its": 432,
      "Ġever": 433,
      "Ġdo": 434,
      "Ġtoken": 435,
      "ake": 436,
      "Ġevery": 437,
      "(-": 438,
      ").": 439,
      "..": 440,
      "04": 441,
      "Tr": 442,
      "Tensor": 443,
      "aw": 444,
      "ct": 445,
      "dy": 446,
      "dat": 447,
      "el": 448,
      "ep": 449,
      "fs": 450,
      "fes": 451,
      "gs": 452,
      "id": 453,
      "ifes": 454,
      "path": 455,
      "rs": 456,
      "rin": 457,
      "¨Ø§": 458,
      "¼Î": 459,
      "Ã©": 460,
      "Î¬": 461,
      "Ø¨Ø§": 462,
      "ä¸": 463,
      "Ġ4": 464,
      "Ġ6": 465,
      "Ġo": 466,
      "Ġof": 467,
      "Ġacc": 468,
      "orm": 469,
      "Ġse": 470,
      "Ġsay": 471,
      "Ġspac": 472,
      "Ġwh": 473,
      "Ġwhe": 474,
      "ĠĠĠĠĠĠĠĠĠĠĠ": 475,
      "Ġthen": 476,
      "Ġby": 477,
      "Ġfile": 478,
      "Ġman": 479,
      "ant": 480,
      "read": 481,
      "ase": 482,
      "ass": 483,
      "ith": 484,
      "ĠðŁĳ": 485,
      "Ġ12": 486,
      "Ġeac": 487,
      "Ġne": 488,
      "ary": 489,
      "().": 490,
      "Ġone": 491,
      "Ð¸Ð": 492,
      "Ġarr": 493,
      "Ġweight": 494,
      "Ġbefor": 495,
      "Ġkeep": 496,
      "ize": 497,
      "Ġhead": 498,
      "Ġask": 499,
      "Ġstd": 500,
      "body": 501,
      "ÑĤÐ¾": 502,
      "Ġout": 503,
      "Ġfox": 504,
      "True": 505,
      "data": 506,
      "ifest": 507,
      "rint": 508,
      "Ġspaces": 509,
      "Ġmanifest": 510,
      "Ġeach": 511,
      "Ġbefore": 512,
      "Ġkeepdim": 513,
      "!(\"": 514,
      "\",": 515,
      "\");": 516,
      "(&": 517,
      "):": 518,
      "01": 519,
      "09": 520,
      "32": 521,
      "56": 522,
      "92": 523,
      "ER": 524,
      "MI": 525,
      "Words": 526,
      "];": 527,
      "]);": 528,
      "aÃ": 529,
      "ain": 530,
      "ave": 531,
      "ch": 532,
      "ck": 533,
      "com": 534,
      "cab": 535,
      "case": 536,
      "dent": 537,
      "ding": 538,
      "ew": 539,
      "embed": 540,
      "gits": 541,
      "is": 542,
      "ian": 543,
      "ive": 544,
      "ill": 545,
      "kens": 546,
      "ln": 547,
      "les": 548,
      "ml": 549,
      "ment": 550,
      "nd": 551,
      "no": 552,
      "new": 553,
      "os": 554,
      "ocab": 555,
      "pl": 556,
      "py": 557,
      "ple": 558,
      "ry": 559,
      "ring": 560,
      "sum": 561,
      "tent": 562,
      "tensor": 563,
      "tmax": 564,
      "tur": 565,
      "ues": 566,
      "ure": 567,
      "val": 568,
      "we": 569,
      "words": 570,
      "you": 571,
      "}}": 572,
      "¯ãĥ": 573,
      "²Ðµ": 574,
      "»Î": 575,
      "Î¹": 576,
      "Î¼Î": 577,
      "Ïĥ": 578,
      "Ðº": 579,
      "Ø±": 580,
      "ÙĦ": 581,
      "Ùħ": 582,
      "âĢ": 583,
      "ä»": 584,
      "å¼": 585,
      "Ġ'": 586,
      "Ġ/": 587,
      "Ġ5": 588,
      "Ġ8": 589,
      "Ġ>": 590,
      "ĠI": 591,
      "ĠO": 592,
      "ĠP": 593,
      "ĠR": 594,
      "ĠS": 595,
      "Ġâ": 596,
      "Ġlo": 597,
      "ĠThe": 598,
      "Ġyou": 599,
      "ħå": 600,
      "įðŁ": 601,
      "Ĺãģ": 602,
      "Ġtensor": 603,
      "her": 604,
      "ind": 605,
      "ers": 606,
      "Ġsc": 607,
      "Ġsh": 608,
      "Ġsaw": 609,
      "Ġwant": 610,
      "Ġwith": 611,
      "ate": 612,
      "Ġfou": 613,
      "ðŁĩ": 614,
      "one": 615,
      "ĠðŁ¦": 616,
      "ĠðŁĩ": 617,
      "ĠðŁĺ": 618,
      "Ġ10": 619,
      "Ġembed": 620,
      "Ġeps": 621,
      "Ġnp": 622,
      "Ġnot": 623,
      "Ġnorm": 624,
      "Ġany": 625,
      "ould": 626,
      "Ġinde": 627,
      "Ġinto": 628,
      "Ġindent": 629,
      "arr": 630,
      "args": 631,
      "arian": 632,
      "ade": 633,
      "Ġthan": 634,
      "())": 635,
      "(),": 636,
      "Ġdec": 637,
      "Ġdid": 638,
      "Ġ{\"": 639,
      "acken": 640,
      "Ġcan": 641,
      "Ġcom": 642,
      "Ġhas": 643,
      "Ġhand": 644,
      "Ġpai": 645,
      "Ġprint": 646,
      "html": 647,
      "yte": 648,
      "ãģĻ": 649,
      "def": 650,
      "Ġid": 651,
      "ĠÎ³": 652,
      "query": 653,
      "Ġgo": 654,
      "Ġrun": 655,
      "Ġonce": 656,
      "aid": 657,
      "ail": 658,
      "ame": 659,
      "ample": 660,
      "ayer": 661,
      "ext": 662,
      "example": 663,
      "oftmax": 664,
      "Ð¸ÑĢ": 665,
      "ãĥ¼": 666,
      "ãĥĪ": 667,
      "Ġ256": 668,
      "Ġkey": 669,
      "000": 670,
      "ich": 671,
      "ick": 672,
      "Ġlayer": 673,
      "Ġretur": 674,
      "Ġmeas": 675,
      "024": 676,
      "026": 677,
      "></": 678,
      "odel": 679,
      "ptim": 680,
      "row": 681,
      "rompt": 682,
      "ulary": 683,
      "Ġvocab": 684,
      "Ġquery": 685,
      "Ġdog": 686,
      "fset": 687,
      "Ġ64": 688,
      "Ġoptim": 689,
      "Ġsays": 690,
      "Ġwhat": 691,
      "Ġwhere": 692,
      "Ġneed": 693,
      "Ġasked": 694,
      "!(\"{": 695,
      "tention": 696,
      "âĢįðŁ": 697,
      "Ġindex": 698,
      "Ġindented": 699,
      "ariance": 700,
      "ackend": 701,
      "Ġhandles": 702,
      "Ġpairs": 703,
      "Ġprintln": 704,
      "Ġreturn": 705,
      "Ġvocabulary": 706,
      "âĢįðŁĳ": 707,
      "!<": 708,
      "\")": 709,
      "\">": 710,
      "(())": 711,
      "),": 712,
      ",),": 713,
      ".\"": 714,
      "//": 715,
      "12": 716,
      "14": 717,
      "15": 718,
      "16": 719,
      "18": 720,
      "192": 721,
      "1024": 722,
      "28": 723,
      "2026": 724,
      "30": 725,
      "45": 726,
      "718": 727,
      ":#": 728,
      "://": 729,
      "<(),": 730,
      "=\"": 731,
      "AK": 732,
      "At": 733,
      "Acc": 734,
      "AMI": 735,
      "Backend": 736,
      "CR": 737,
      "CT": 738,
      "Cp": 739,
      "Cam": 740,
      "Case": 741,
      "DER": 742,
      "EL": 743,
      "Em": 744,
      "Er": 745,
      "EAMI": 746,
      "ECT": 747,
      "FR": 748,
      "Gr": 749,
      "He": 750,
      "Hel": 751,
      "HER": 752,
      "In": 753,
      "IMI": 754,
      "LIMI": 755,
      "NG": 756,
      "No": 757,
      "Num": 758,
      "NAK": 759,
      "OM": 760,
      "PE": 761,
      "Path": 762,
      "Pun": 763,
      "RDER": 764,
      "St": 765,
      "She": 766,
      "SEL": 767,
      "SNAK": 768,
      "Vec": 769,
      "We": 770,
      "Wh": 771,
      "WHER": 772,
      "ZÃ": 773,
      "],": 774,
      "af": 775,
      "ag": 776,
      "ap": 777,
      "au": 778,
      "az": 779,
      "ale": 780,
      "aps": 781,
      "be": 782,
      "bl": 783,
      "bin": 784,
      "bou": 785,
      "bab": 786,
      "band": 787,
      "bers": 788,
      "byte": 789,
      "cl": 790,
      "co": 791,
      "che": 792,
      "cat": 793,
      "cur": 794,
      "code": 795,
      "cro": 796,
      "dÅ": 797,
      "der": 798,
      "ean": 799,
      "ell": 800,
      "fn": 801,
      "fr": 802,
      "ft": 803,
      "fu": 804,
      "fer": 805,
      "file": 806,
      "from": 807,
      "fill": 808,
      "gn": 809,
      "ges": 810,
      "gle": 811,
      "gre": 812,
      "gmax": 813,
      "ho": 814,
      "hing": 815,
      "il": 816,
      "ir": 817,
      "iv": 818,
      "ix": 819,
      "ied": 820,
      "ias": 821,
      "iec": 822,
      "ign": 823,
      "ji": 824,
      "jec": 825,
      "ks": 826,
      "len": 827,
      "lle": 828,
      "llo": 829,
      "lass": 830,
      "ms": 831,
      "mor": 832,
      "mat": 833,
      "mal": 834,
      "met": 835,
      "mul": 836,
      "mut": 837,
      "model": 838,
      "mean": 839,
      "nt": 840,
      "not": 841,
      "nam": 842,
      "nake": 843,
      "norm": 844,
      "npy": 845,
      "ok": 846,
      "op": 847,
      "oder": 848,
      "oji": 849,
      "por": 850,
      "ped": 851,
      "pens": 852,
      "pro": 853,
      "put": 854,
      "print": 855,
      "prompt": 856,
      "qr": 857,
      "res": 858,
      "ror": 859,
      "ron": 860,
      "rail": 861,
      "rich": 862,
      "ried": 863,
      "ss": 864,
      "sion": 865,
      "sel": 866,
      "said": 867,
      "softmax": 868,
      "th": 869,
      "tp": 870,
      "ts": 871,
      "ty": 872,
      "the": 873,
      "ted": 874,
      "tab": 875,
      "take": 876,
      "tain": 877,
      "twe": 878,
      "trail": 879,
      "uat": 880,
      "uding": 881,
      "uBackend": 882,
      "variance": 883,
      "war": 884,
      "way": 885,
      "wid": 886,
      "who": 887,
      "{\"": 888,
      "}:": 889,
      "}\");": 890,
      "¡å": 891,
      "¢å¼": 892,
      "£o": 893,
      "¤©": 894,
      "¤ï": 895,
      "¤ĸ": 896,
      "¤ãĤ": 897,
      "¥½": 898,
      "¥ãģ": 899,
      "§ł": 900,
      "§ade": 901,
      "§ãģĻ": 902,
      "¨âĢįðŁĳ": 903,
      "¨¡å": 904,
      "©âĢįðŁĳ": 905,
      "ªæ": 906,
      "ªØ¨Ø§": 907,
      "«å¼": 908,
      "®Ø": 909,
      "¯è": 910,
      "¯ķ": 911,
      "¯ãģ": 912,
      "¯ve": 913,
      "¯ä¸": 914,
      "¯ðŁĩ": 915,
      "°Ø§": 916,
      "°Ĺãģ": 917,
      "±o": 918,
      "±Ï": 919,
      "²ãģ": 920,
      "³dÅ": 921,
      "´¢å¼": 922,
      "µĭ": 923,
      "µÎ¹": 924,
      "¶å": 925,
      "¶ãĥ¼": 926,
      "·Î": 927,
      "·Ð°": 928,
      "¸ı": 929,
      "¸ħå": 930,
      "¹Ø§": 931,
      "¹ãĥĪ": 932,
      "ºÏ": 933,
      "ºÎ¬": 934,
      "ºðŁĩ": 935,
      "ºÐ¸ÑĢ": 936,
      "»Ð": 937,
      "»Ð¸": 938,
      "¼Į": 939,
      "¼Ð¸ÑĢ": 940,
      "¼rich": 941,
      "½ł": 942,
      "½Ð°": 943,
      "½Ð¸Ð": 944,
      "½Î¹": 945,
      "¾ãģĻ": 946,
      "¿Ï": 947,
      "¿Ļ": 948,
      "¿ÑĢ": 949,
      "Ãĺ": 950,
      "Ã£o": 951,
      "Ã±o": 952,
      "Ã³dÅ": 953,
      "Åģ": 954,
      "Î±": 955,
      "Îĵ": 956,
      "Î»Î": 957,
      "ÎµÎ¹": 958,
      "ÎºÎ¬": 959,
      "Î¿Ï": 960,
      "Ïģ": 961,
      "ÐŁ": 962,
      "Ð²Ðµ": 963,
      "Ð½Ð¸Ð": 964,
      "ÑĨ": 965,
      "ØŃ": 966,
      "Ø®Ø": 967,
      "Ø°Ø§": 968,
      "Ø¹Ø§": 969,
      "Ùĩ": 970,
      "ä½ł": 971,
      "åĪ": 972,
      "åī": 973,
      "åĴ": 974,
      "å¤©": 975,
      "å¥½": 976,
      "æĸ": 977,
      "æĹ": 978,
      "æĺ": 979,
      "æ¨¡å": 980,
      "æ°Ĺãģ": 981,
      "æ¸ħå": 982,
      "çķ": 983,
      "ç´¢å¼": 984,
      "è¯ķ": 985,
      "è¿Ļ": 986,
      "éĩ": 987,
      "ï¼Į": 988,
      "Ġ!": 989,
      "Ġ#": 990,
      "Ġ$": 991,
      "Ġ%": 992,
      "Ġ)": 993,
      "Ġ,": 994,
      "Ġ.": 995,
      "Ġ3": 996,
      "Ġ7": 997,
      "Ġ9": 998,
      "Ġ:": 999,
      "Ġ;": 1000,
      "Ġ<": 1001,
      "Ġ?": 1002,
      "Ġ@": 1003,
      "Ġ[": 1004,
      "Ġ\\": 1005,
      "Ġ]": 1006,
      "Ġ^": 1007,
      "Ġ_": 1008,
      "Ġ`": 1009,
      "Ġ|": 1010,
      "Ġ~": 1011,
      "Ġen": 1012,
      "Ġor": 1013,
      "ĠØ§": 1014,
      "ĠTensor": 1015,
      "ĠØ¨Ø§": 1016,
      "ĠÑĤÐ¾": 1017,
      "Ġ32": 1018,
      "ĠÏĥ": 1019,
      "ĠCp": 1020
    },
    "merges": [
      [
        "Ġ",
        "Ġ"
      ],
      [
        "Ġ",
        "t"
      ],
      [
        "Ġ",
        "a"
      ],
      [
        "h",
        "e"
      ],
      [
        "e",
        "n"
      ],
      [
        "i",
        "n"
      ],
      [
        "e",
        "s"
      ],
      [
        "o",
        "r"
      ],
      [
        "e",
        "r"
      ],
      [
        "Ġ",
        "s"
      ],
      [
        "Ġ",
        "w"
      ],
      [
        "ĠĠ",
        "ĠĠ"
      ],
      [
        "a",
        "t"
      ],
      [
        "ĠĠ",
        "Ġ"
      ],
      [
        "Ġt",
        "he"
      ],
      [
        "Ġ",
        "b"
      ],
      [
        "Ġ",
        "f"
      ],
      [
        "Ġ",
        "m"
      ],
      [
        "e",
        "d"
      ],
      [
        "ð",
        "Ł"
      ],
      [
        "a",
        "n"
      ],
      [
        "l",
        "e"
      ],
      [
        "o",
        "n"
      ],
      [
        "r",
        "e"
      ],
      [
        "a",
        "s"
      ],
      [
        "i",
        "t"
      ],
      [
        "Ġ",
        "ðŁ"
      ],
      [
        "Ġ",
        "1"
      ],
      [
        "Ġ",
        "e"
      ],
      [
        "Ġ",
        "n"
      ],
      [
        "Ġa",
        "n"
      ],
      [
        "o",
        "u"
      ],
      [
        "Ġ",
        "in"
      ],
      [
        "a",
        "r"
      ],
      [
        "Ġ",
        "="
      ],
      [
        "a",
        "d"
      ],
      [
        "Ġt",
        "h"
      ],
      [
        "(",
        ")"
      ],
      [
        "Ġ",
        "d"
      ],
      [
        "Ġ",
        "k"
      ],
      [
        "Ġ",
        "{"
      ],
      [
        "en",
        "s"
      ],
      [
        "a",
        "c"
      ],
      [
        "i",
        "m"
      ],
      [
        "p",
        "e"
      ],
      [
        "Ġ",
        "c"
      ],
      [
        "Ġ",
        "h"
      ],
      [
        "Ġ",
        "p"
      ],
      [
        "ĠĠĠĠ",
        "ĠĠĠ"
      ],
      [
        "h",
        "t"
      ],
      [
        "l",
        "o"
      ],
      [
        "o",
        "m"
      ],
      [
        "o",
        "t"
      ],
      [
        "y",
        "t"
      ],
      [
        "ã",
        "ģ"
      ],
      [
        "Ġt",
        "o"
      ],
      [
        "en",
        "t"
      ],
      [
        "in",
        "g"
      ],
      [
        "Ġan",
        "d"
      ],
      [
        "a",
        "l"
      ],
      [
        "d",
        "e"
      ],
      [
        "v",
        "er"
      ],
      [
        "Ġ",
        "*"
      ],
      [
        "Ġ",
        "i"
      ],
      [
        "Ġ",
        "Î"
      ],
      [
        ":",
        ":"
      ],
      [
        "a",
        "pe"
      ],
      [
        "q",
        "u"
      ],
      [
        "v",
        "e"
      ],
      [
        "Ġ",
        "+"
      ],
      [
        "Ġ",
        "0"
      ],
      [
        "Ġ",
        "g"
      ],
      [
        "Ġ",
        "r"
      ],
      [
        "Ġ",
        "u"
      ],
      [
        "Ġ",
        "le"
      ],
      [
        "Ġ",
        "on"
      ],
      [
        "ens",
        "or"
      ],
      [
        "\"",
        ":"
      ],
      [
        "a",
        "i"
      ],
      [
        "a",
        "m"
      ],
      [
        "a",
        "y"
      ],
      [
        "e",
        "x"
      ],
      [
        "g",
        "ht"
      ],
      [
        "h",
        "ape"
      ],
      [
        "i",
        "on"
      ],
      [
        "k",
        "en"
      ],
      [
        "o",
        "f"
      ],
      [
        "u",
        "m"
      ],
      [
        "Ð",
        "¸"
      ],
      [
        "Ñ",
        "Ģ"
      ],
      [
        "Ø",
        "§"
      ],
      [
        "ã",
        "Ģ"
      ],
      [
        "ã",
        "Ĥ"
      ],
      [
        "ã",
        "ĥ"
      ],
      [
        "Ġ",
        "\""
      ],
      [
        "Ġ",
        "("
      ],
      [
        "Ġ",
        "2"
      ],
      [
        "Ġ",
        "x"
      ],
      [
        "Ġ",
        "}"
      ],
      [
        "Ġ",
        "it"
      ],
      [
        "Ġa",
        "r"
      ],
      [
        "Ġw",
        "e"
      ],
      [
        "Ġb",
        "e"
      ],
      [
        "Ġb",
        "yt"
      ],
      [
        "Ġf",
        "or"
      ],
      [
        "Ġk",
        "e"
      ],
      [
        "Ġle",
        "t"
      ],
      [
        "Ġbyt",
        "es"
      ],
      [
        ")",
        ";"
      ],
      [
        "0",
        "0"
      ],
      [
        "a",
        "b"
      ],
      [
        "a",
        "x"
      ],
      [
        "c",
        "e"
      ],
      [
        "e",
        "c"
      ],
      [
        "i",
        "c"
      ],
      [
        "i",
        "z"
      ],
      [
        "i",
        "ght"
      ],
      [
        "l",
        "l"
      ],
      [
        "m",
        "ax"
      ],
      [
        "s",
        "hape"
      ],
      [
        "u",
        "r"
      ],
      [
        "Ġ",
        "l"
      ],
      [
        "Ġ",
        "Ð"
      ],
      [
        "Ġ",
        "he"
      ],
      [
        "Ġ",
        "re"
      ],
      [
        "Ġa",
        "s"
      ],
      [
        "Ġs",
        "t"
      ],
      [
        "at",
        "h"
      ],
      [
        "Ġm",
        "e"
      ],
      [
        "Ġth",
        "at"
      ],
      [
        "Ġi",
        "s"
      ],
      [
        "Ġu",
        "s"
      ],
      [
        "ãĢ",
        "Ĥ"
      ],
      [
        "(",
        "\""
      ],
      [
        "0",
        "2"
      ],
      [
        ">",
        "<"
      ],
      [
        "T",
        "he"
      ],
      [
        "a",
        "k"
      ],
      [
        "b",
        "o"
      ],
      [
        "b",
        "ed"
      ],
      [
        "c",
        "c"
      ],
      [
        "d",
        "s"
      ],
      [
        "d",
        "im"
      ],
      [
        "e",
        "t"
      ],
      [
        "f",
        "or"
      ],
      [
        "i",
        "le"
      ],
      [
        "l",
        "d"
      ],
      [
        "m",
        "bed"
      ],
      [
        "o",
        "de"
      ],
      [
        "p",
        "s"
      ],
      [
        "p",
        "t"
      ],
      [
        "p",
        "ac"
      ],
      [
        "r",
        "o"
      ],
      [
        "r",
        "om"
      ],
      [
        "t",
        "o"
      ],
      [
        "u",
        "e"
      ],
      [
        "u",
        "l"
      ],
      [
        "u",
        "n"
      ],
      [
        "u",
        "t"
      ],
      [
        "Ð",
        "°"
      ],
      [
        "Ð",
        "µ"
      ],
      [
        "Ð",
        "¾"
      ],
      [
        "Ñ",
        "Ĥ"
      ],
      [
        "Ġ",
        "&"
      ],
      [
        "Ġ",
        "-"
      ],
      [
        "Ġ",
        "B"
      ],
      [
        "Ġ",
        "j"
      ],
      [
        "Ġ",
        "v"
      ],
      [
        "Ġ",
        "ou"
      ],
      [
        "Ġ",
        "qu"
      ],
      [
        "Ġa",
        "t"
      ],
      [
        "or",
        "ds"
      ],
      [
        "er",
        "y"
      ],
      [
        "Ġw",
        "as"
      ],
      [
        "Ġf",
        "o"
      ],
      [
        "an",
        "d"
      ],
      [
        "it",
        "s"
      ],
      [
        "Ġe",
        "ver"
      ],
      [
        "Ġd",
        "o"
      ],
      [
        "Ġto",
        "ken"
      ],
      [
        "ak",
        "e"
      ],
      [
        "Ġever",
        "y"
      ],
      [
        "(",
        "-"
      ],
      [
        ")",
        "."
      ],
      [
        ".",
        "."
      ],
      [
        "0",
        "4"
      ],
      [
        "T",
        "r"
      ],
      [
        "T",
        "ensor"
      ],
      [
        "a",
        "w"
      ],
      [
        "c",
        "t"
      ],
      [
        "d",
        "y"
      ],
      [
        "d",
        "at"
      ],
      [
        "e",
        "l"
      ],
      [
        "e",
        "p"
      ],
      [
        "f",
        "s"
      ],
      [
        "f",
        "es"
      ],
      [
        "g",
        "s"
      ],
      [
        "i",
        "d"
      ],
      [
        "i",
        "fes"
      ],
      [
        "p",
        "ath"
      ],
      [
        "r",
        "s"
      ],
      [
        "r",
        "in"
      ],
      [
        "¨",
        "Ø§"
      ],
      [
        "¼",
        "Î"
      ],
      [
        "Ã",
        "©"
      ],
      [
        "Î",
        "¬"
      ],
      [
        "Ø",
        "¨Ø§"
      ],
      [
        "ä",
        "¸"
      ],
      [
        "Ġ",
        "4"
      ],
      [
        "Ġ",
        "6"
      ],
      [
        "Ġ",
        "o"
      ],
      [
        "Ġ",
        "of"
      ],
      [
        "Ġa",
        "cc"
      ],
      [
        "or",
        "m"
      ],
      [
        "Ġs",
        "e"
      ],
      [
        "Ġs",
        "ay"
      ],
      [
        "Ġs",
        "pac"
      ],
      [
        "Ġw",
        "h"
      ],
      [
        "Ġw",
        "he"
      ],
      [
        "ĠĠĠĠ",
        "ĠĠĠĠĠĠĠ"
      ],
      [
        "Ġthe",
        "n"
      ],
      [
        "Ġb",
        "y"
      ],
      [
        "Ġf",
        "ile"
      ],
      [
        "Ġm",
        "an"
      ],
      [
        "an",
        "t"
      ],
      [
        "re",
        "ad"
      ],
      [
        "as",
        "e"
      ],
      [
        "as",
        "s"
      ],
      [
        "it",
        "h"
      ],
      [
        "ĠðŁ",
        "ĳ"
      ],
      [
        "Ġ1",
        "2"
      ],
      [
        "Ġe",
        "ac"
      ],
      [
        "Ġn",
        "e"
      ],
      [
        "ar",
        "y"
      ],
      [
        "()",
        "."
      ],
      [
        "Ġon",
        "e"
      ],
      [
        "Ð¸",
        "Ð"
      ],
      [
        "Ġar",
        "r"
      ],
      [
        "Ġwe",
        "ight"
      ],
      [
        "Ġbe",
        "for"
      ],
      [
        "Ġke",
        "ep"
      ],
      [
        "iz",
        "e"
      ],
      [
        "Ġhe",
        "ad"
      ],
      [
        "Ġas",
        "k"
      ],
      [
        "Ġst",
        "d"
      ],
      [
        "bo",
        "dy"
      ],
      [
        "ÑĤ",
        "Ð¾"
      ],
      [
        "Ġou",
        "t"
      ],
      [
        "Ġfo",
        "x"
      ],
      [
        "Tr",
        "ue"
      ],
      [
        "dat",
        "a"
      ],
      [
        "ifes",
        "t"
      ],
      [
        "rin",
        "t"
      ],
      [
        "Ġspac",
        "es"
      ],
      [
        "Ġman",
        "ifest"
      ],
      [
        "Ġeac",
        "h"
      ],
      [
        "Ġbefor",
        "e"
      ],
      [
        "Ġkeep",
        "dim"
      ],
      [
        "!",
        "(\""
      ],
      [
        "\"",
        ","
      ],
      [
        "\"",
        ");"
      ],
      [
        "(",
        "&"
      ],
      [
        ")",
        ":"
      ],
      [
        "0",
        "1"
      ],
      [
        "0",
        "9"
      ],
      [
        "3",
        "2"
      ],
      [
        "5",
        "6"
      ],
      [
        "9",
        "2"
      ],
      [
        "E",
        "R"
      ],
      [
        "M",
        "I"
      ],
      [
        "W",
        "ords"
      ],
      [
        "]",
        ";"
      ],
      [
        "]",
        ");"
      ],
      [
        "a",
        "Ã"
      ],
      [
        "a",
        "in"
      ],
      [
        "a",
        "ve"
      ],
      [
        "c",
        "h"
      ],
      [
        "c",
        "k"
      ],
      [
        "c",
        "om"
      ],
      [
        "c",
        "ab"
      ],
      [
        "c",
        "ase"
      ],
      [
        "d",
        "ent"
      ],
      [
        "d",
        "ing"
      ],
      [
        "e",
        "w"
      ],
      [
        "e",
        "mbed"
      ],
      [
        "g",
        "its"
      ],
      [
        "i",
        "s"
      ],
      [
        "i",
        "an"
      ],
      [
        "i",
        "ve"
      ],
      [
        "i",
        "ll"
      ],
      [
        "k",
        "ens"
      ],
      [
        "l",
        "n"
      ],
      [
        "l",
        "es"
      ],
      [
        "m",
        "l"
      ],
      [
        "m",
        "ent"
      ],
      [
        "n",
        "d"
      ],
      [
        "n",
        "o"
      ],
      [
        "n",
        "ew"
      ],
      [
        "o",
        "s"
      ],
      [
        "o",
        "cab"
      ],
      [
        "p",
        "l"
      ],
      [
        "p",
        "y"
      ],
      [
        "p",
        "le"
      ],
      [
        "r",
        "y"
      ],
      [
        "r",
        "ing"
      ],
      [
        "s",
        "um"
      ],
      [
        "t",
        "ent"
      ],
      [
        "t",
        "ensor"
      ],
      [
        "t",
        "max"
      ],
      [
        "t",
        "ur"
      ],
      [
        "u",
        "es"
      ],
      [
        "u",
        "re"
      ],
      [
        "v",
        "al"
      ],
      [
        "w",
        "e"
      ],
      [
        "w",
        "ords"
      ],
      [
        "y",
        "ou"
      ],
      [
        "}",
        "}"
      ],
      [
        "¯",
        "ãĥ"
      ],
      [
        "²",
        "Ðµ"
      ],
      [
        "»",
        "Î"
      ],
      [
        "Î",
        "¹"
      ],
      [
        "Î",
        "¼Î"
      ],
      [
        "Ï",
        "ĥ"
      ],
      [
        "Ð",
        "º"
      ],
      [
        "Ø",
        "±"
      ],
      [
        "Ù",
        "Ħ"
      ],
      [
        "Ù",
        "ħ"
      ],
      [
        "â",
        "Ģ"
      ],
      [
        "ä",
        "»"
      ],
      [
        "å",
        "¼"
      ],
      [
        "Ġ",
        "'"
      ],
      [
        "Ġ",
        "/"
      ],
      [
        "Ġ",
        "5"
      ],
      [
        "Ġ",
        "8"
      ],
      [
        "Ġ",
        ">"
      ],
      [
        "Ġ",
        "I"
      ],
      [
        "Ġ",
        "O"
      ],
      [
        "Ġ",
        "P"
      ],
      [
        "Ġ",
        "R"
      ],
      [
        "Ġ",
        "S"
      ],
      [
        "Ġ",
        "â"
      ],
      [
        "Ġ",
        "lo"
      ],
      [
        "Ġ",
        "The"
      ],
      [
        "Ġ",
        "you"
      ],
      [
        "ħ",
        "å"
      ],
      [
        "į",
        "ðŁ"
      ],
      [
        "Ĺ",
        "ãģ"
      ],
      [
        "Ġt",
        "ensor"
      ],
      [
        "he",
        "r"
      ],
      [
        "in",
        "d"
      ],
      [
        "er",
        "s"
      ],
      [
        "Ġs",
        "c"
      ],
      [
        "Ġs",
        "h"
      ],
      [
        "Ġs",
        "aw"
      ],
      [
        "Ġw",
        "ant"
      ],
      [
        "Ġw",
        "ith"
      ],
      [
        "at",
        "e"
      ],
      [
        "Ġf",
        "ou"
      ],
      [
        "ðŁ",
        "ĩ"
      ],
      [
        "on",
        "e"
      ],
      [
        "ĠðŁ",
        "¦"
      ],
      [
        "ĠðŁ",
        "ĩ"
      ],
      [
        "ĠðŁ",
        "ĺ"
      ],
      [
        "Ġ1",
        "0"
      ],
      [
        "Ġe",
        "mbed"
      ],
      [
        "Ġe",
        "ps"
      ],
      [
        "Ġn",
        "p"
      ],
      [
        "Ġn",
        "ot"
      ],
      [
        "Ġn",
        "orm"
      ],
      [
        "Ġan",
        "y"
      ],
      [
        "ou",
        "ld"
      ],
      [
        "Ġin",
        "de"
      ],
      [
        "Ġin",
        "to"
      ],
      [
        "Ġin",
        "dent"
      ],
      [
        "ar",
        "r"
      ],
      [
        "ar",
        "gs"
      ],
      [
        "ar",
        "ian"
      ],
      [
        "ad",
        "e"
      ],
      [
        "Ġth",
        "an"
      ],
      [
        "()",
        ")"
      ],
      [
        "()",
        ","
      ],
      [
        "Ġd",
        "ec"
      ],
      [
        "Ġd",
        "id"
      ],
      [
        "Ġ{",
        "\""
      ],
      [
        "ac",
        "ken"
      ],
      [
        "Ġc",
        "an"
      ],
      [
        "Ġc",
        "om"
      ],
      [
        "Ġh",
        "as"
      ],
      [
        "Ġh",
        "and"
      ],
      [
        "Ġp",
        "ai"
      ],
      [
        "Ġp",
        "rint"
      ],
      [
        "ht",
        "ml"
      ],
      [
        "yt",
        "e"
      ],
      [
        "ãģ",
        "Ļ"
      ],
      [
        "de",
        "f"
      ],
      [
        "Ġi",
        "d"
      ],
      [
        "ĠÎ",
        "³"
      ],
      [
        "qu",
        "ery"
      ],
      [
        "Ġg",
        "o"
      ],
      [
        "Ġr",
        "un"
      ],
      [
        "Ġon",
        "ce"
      ],
      [
        "ai",
        "d"
      ],
      [
        "ai",
        "l"
      ],
      [
        "am",
        "e"
      ],
      [
        "am",
        "ple"
      ],
      [
        "ay",
        "er"
      ],
      [
        "ex",
        "t"
      ],
      [
        "ex",
        "ample"
      ],
      [
        "of",
        "tmax"
      ],
      [
        "Ð¸",
        "ÑĢ"
      ],
      [
        "ãĥ",
        "¼"
      ],
      [
        "ãĥ",
        "Ī"
      ],
      [
        "Ġ2",
        "56"
      ],
      [
        "Ġke",
        "y"
      ],
      [
        "00",
        "0"
      ],
      [
        "ic",
        "h"
      ],
      [
        "ic",
        "k"
      ],
      [
        "Ġl",
        "ayer"
      ],
      [
        "Ġre",
        "tur"
      ],
      [
        "Ġme",
        "as"
      ],
      [
        "02",
        "4"
      ],
      [
        "02",
        "6"
      ],
      [
        "><",
        "/"
      ],
      [
        "ode",
        "l"
      ],
      [
        "pt",
        "im"
      ],
      [
        "ro",
        "w"
      ],
      [
        "rom",
        "pt"
      ],
      [
        "ul",
        "ary"
      ],
      [
        "Ġv",
        "ocab"
      ],
      [
        "Ġqu",
        "ery"
      ],
      [
        "Ġdo",
        "g"
      ],
      [
        "fs",
        "et"
      ],
      [
        "Ġ6",
        "4"
      ],
      [
        "Ġo",
        "ptim"
      ],
      [
        "Ġsay",
        "s"
      ],
      [
        "Ġwh",
        "at"
      ],
      [
        "Ġwhe",
        "re"
      ],
      [
        "Ġne",
        "ed"
      ],
      [
        "Ġask",
        "ed"
      ],
      [
        "!(\"",
        "{"
      ],
      [
        "tent",
        "ion"
      ],
      [
        "âĢ",
        "įðŁ"
      ],
      [
        "Ġinde",
        "x"
      ],
      [
        "Ġindent",
        "ed"
      ],
      [
        "arian",
        "ce"
      ],
      [
        "acken",
        "d"
      ],
      [
        "Ġhand",
        "les"
      ],
      [
        "Ġpai",
        "rs"
      ],
      [
        "Ġprint",
        "ln"
      ],
      [
        "Ġretur",
        "n"
      ],
      [
        "Ġvocab",
        "ulary"
      ],
      [
        "âĢįðŁ",
        "ĳ"
      ],
      [
        "!",
        "<"
      ],
      [
        "\"",
        ")"
      ],
      [
        "\"",
        ">"
      ],
      [
        "(",
        "())"
      ],
      [
        ")",
        ","
      ],
      [
        ",",
        "),"
      ],
      [
        ".",
        "\""
      ],
      [
        "/",
        "/"
      ],
      [
        "1",
        "2"
      ],
      [
        "1",
        "4"
      ],
      [
        "1",
        "5"
      ],
      [
        "1",
        "6"
      ],
      [
        "1",
        "8"
      ],
      [
        "1",
        "92"
      ],
      [
        "1",
        "024"
      ],
      [
        "2",
        "8"
      ],
      [
        "2",
        "026"
      ],
      [
        "3",
        "0"
      ],
      [
        "4",
        "5"
      ],
      [
        "7",
        "18"
      ],
      [
        ":",
        "#"
      ],
      [
        ":",
        "//"
      ],
      [
        "<",
        "(),"
      ],
      [
        "=",
        "\""
      ],
      [
        "A",
        "K"
      ],
      [
        "A",
        "t"
      ],
      [
        "A",
        "cc"
      ],
      [
        "A",
        "MI"
      ],
      [
        "B",
        "ackend"
      ],
      [
        "C",
        "R"
      ],
      [
        "C",
        "T"
      ],
      [
        "C",
        "p"
      ],
      [
        "C",
        "am"
      ],
      [
        "C",
        "ase"
      ],
      [
        "D",
        "ER"
      ],
      [
        "E",
        "L"
      ],
      [
        "E",
        "m"
      ],
      [
        "E",
        "r"
      ],
      [
        "E",
        "AMI"
      ],
      [
        "E",
        "CT"
      ],
      [
        "F",
        "R"
      ],
      [
        "G",
        "r"
      ],
      [
        "H",
        "e"
      ],
      [
        "H",
        "el"
      ],
      [
        "H",
        "ER"
      ],
      [
        "I",
        "n"
      ],
      [
        "I",
        "MI"
      ],
      [
        "L",
        "IMI"
      ],
      [
        "N",
        "G"
      ],
      [
        "N",
        "o"
      ],
      [
        "N",
        "um"
      ],
      [
        "N",
        "AK"
      ],
      [
        "O",
        "M"
      ],
      [
        "P",
        "E"
      ],
      [
        "P",
        "ath"
      ],
      [
        "P",
        "un"
      ],
      [
        "R",
        "DER"
      ],
      [
        "S",
        "t"
      ],
      [
        "S",
        "he"
      ],
      [
        "S",
        "EL"
      ],
      [
        "S",
        "NAK"
      ],
      [
        "V",
        "ec"
      ],
      [
        "W",
        "e"
      ],
      [
        "W",
        "h"
      ],
      [
        "W",
        "HER"
      ],
      [
        "Z",
        "Ã"
      ],
      [
        "]",
        ","
      ],
      [
        "a",
        "f"
      ],
      [
        "a",
        "g"
      ],
      [
        "a",
        "p"
      ],
      [
        "a",
        "u"
      ],
      [
        "a",
        "z"
      ],
      [
        "a",
        "le"
      ],
      [
        "a",
        "ps"
      ],
      [
        "b",
        "e"
      ],
      [
        "b",
        "l"
      ],
      [
        "b",
        "in"
      ],
      [
        "b",
        "ou"
      ],
      [
        "b",
        "ab"
      ],
      [
        "b",
        "and"
      ],
      [
        "b",
        "ers"
      ],
      [
        "b",
        "yte"
      ],
      [
        "c",
        "l"
      ],
      [
        "c",
        "o"
      ],
      [
        "c",
        "he"
      ],
      [
        "c",
        "at"
      ],
      [
        "c",
        "ur"
      ],
      [
        "c",
        "ode"
      ],
      [
        "c",
        "ro"
      ],
      [
        "d",
        "Å"
      ],
      [
        "d",
        "er"
      ],
      [
        "e",
        "an"
      ],
      [
        "e",
        "ll"
      ],
      [
        "f",
        "n"
      ],
      [
        "f",
        "r"
      ],
      [
        "f",
        "t"
      ],
      [
        "f",
        "u"
      ],
      [
        "f",
        "er"
      ],
      [
        "f",
        "ile"
      ],
      [
        "f",
        "rom"
      ],
      [
        "f",
        "ill"
      ],
      [
        "g",
        "n"
      ],
      [
        "g",
        "es"
      ],
      [
        "g",
        "le"
      ],
      [
        "g",
        "re"
      ],
      [
        "g",
        "max"
      ],
      [
        "h",
        "o"
      ],
      [
        "h",
        "ing"
      ],
      [
        "i",
        "l"
      ],
      [
        "i",
        "r"
      ],
      [
        "i",
        "v"
      ],
      [
        "i",
        "x"
      ],
      [
        "i",
        "ed"
      ],
      [
        "i",
        "as"
      ],
      [
        "i",
        "ec"
      ],
      [
        "i",
        "gn"
      ],
      [
        "j",
        "i"
      ],
      [
        "j",
        "ec"
      ],
      [
        "k",
        "s"
      ],
      [
        "l",
        "en"
      ],
      [
        "l",
        "le"
      ],
      [
        "l",
        "lo"
      ],
      [
        "l",
        "ass"
      ],
      [
        "m",
        "s"
      ],
      [
        "m",
        "or"
      ],
      [
        "m",
        "at"
      ],
      [
        "m",
        "al"
      ],
      [
        "m",
        "et"
      ],
      [
        "m",
        "ul"
      ],
      [
        "m",
        "ut"
      ],
      [
        "m",
        "odel"
      ],
      [
        "m",
        "ean"
      ],
      [
        "n",
        "t"
      ],
      [
        "n",
        "ot"
      ],
      [
        "n",
        "am"
      ],
      [
        "n",
        "ake"
      ],
      [
        "n",
        "orm"
      ],
      [
        "n",
        "py"
      ],
      [
        "o",
        "k"
      ],
      [
        "o",
        "p"
      ],
      [
        "o",
        "der"
      ],
      [
        "o",
        "ji"
      ],
      [
        "p",
        "or"
      ],
      [
        "p",
        "ed"
      ],
      [
        "p",
        "ens"
      ],
      [
        "p",
        "ro"
      ],
      [
        "p",
        "ut"
      ],
      [
        "p",
        "rint"
      ],
      [
        "p",
        "rompt"
      ],
      [
        "q",
        "r"
      ],
      [
        "r",
        "es"
      ],
      [
        "r",
        "or"
      ],
      [
        "r",
        "on"
      ],
      [
        "r",
        "ail"
      ],
      [
        "r",
        "ich"
      ],
      [
        "r",
        "ied"
      ],
      [
        "s",
        "s"
      ],
      [
        "s",
        "ion"
      ],
      [
        "s",
        "el"
      ],
      [
        "s",
        "aid"
      ],
      [
        "s",
        "oftmax"
      ],
      [
        "t",
        "h"
      ],
      [
        "t",
        "p"
      ],
      [
        "t",
        "s"
      ],
      [
        "t",
        "y"
      ],
      [
        "t",
        "he"
      ],
      [
        "t",
        "ed"
      ],
      [
        "t",
        "ab"
      ],
      [
        "t",
        "ake"
      ],
      [
        "t",
        "ain"
      ],
      [
        "t",
        "we"
      ],
      [
        "t",
        "rail"
      ],
      [
        "u",
        "at"
      ],
      [
        "u",
        "ding"
      ],
      [
        "u",
        "Backend"
      ],
      [
        "v",
        "ariance"
      ],
      [
        "w",
        "ar"
      ],
      [
        "w",
        "ay"
      ],
      [
        "w",
        "id"
      ],
      [
        "w",
        "ho"
      ],
      [
        "{",
        "\""
      ],
      [
        "}",
        ":"
      ],
      [
        "}",
        "\");"
      ],
      [
        "¡",
        "å"
      ],
      [
        "¢",
        "å¼"
      ],
      [
        "£",
        "o"
      ],
      [
        "¤",
        "©"
      ],
      [
        "¤",
        "ï"
      ],
      [
        "¤",
        "ĸ"
      ],
      [
        "¤",
        "ãĤ"
      ],
      [
        "¥",
        "½"
      ],
      [
        "¥",
        "ãģ"
      ],
      [
        "§",
        "ł"
      ],
      [
        "§",
        "ade"
      ],
      [
        "§",
        "ãģĻ"
      ],
      [
        "¨",
        "âĢįðŁĳ"
      ],
      [
        "¨",
        "¡å"
      ],
      [
        "©",
        "âĢįðŁĳ"
      ],
      [
        "ª",
        "æ"
      ],
      [
        "ª",
        "Ø¨Ø§"
      ],
      [
        "«",
        "å¼"
      ],
      [
        "®",
        "Ø"
      ],
      [
        "¯",
        "è"
      ],
      [
        "¯",
        "ķ"
      ],
      [
        "¯",
        "ãģ"
      ],
      [
        "¯",
        "ve"
      ],
      [
        "¯",
        "ä¸"
      ],
      [
        "¯",
        "ðŁĩ"
      ],
      [
        "°",
        "Ø§"
      ],
      [
        "°",
        "Ĺãģ"
      ],
      [
        "±",
        "o"
      ],
      [
        "±",
        "Ï"
      ],
      [
        "²",
        "ãģ"
      ],
      [
        "³",
        "dÅ"
      ],
      [
        "´",
        "¢å¼"
      ],
      [
        "µ",
        "ĭ"
      ],
      [
        "µ",
        "Î¹"
      ],
      [
        "¶",
        "å"
      ],
      [
        "¶",
        "ãĥ¼"
      ],
      [
        "·",
        "Î"
      ],
      [
        "·",
        "Ð°"
      ],
      [
        "¸",
        "ı"
      ],
      [
        "¸",
        "ħå"
      ],
      [
        "¹",
        "Ø§"
      ],
      [
        "¹",
        "ãĥĪ"
      ],
      [
        "º",
        "Ï"
      ],
      [
        "º",
        "Î¬"
      ],
      [
        "º",
        "ðŁĩ"
      ],
      [
        "º",
        "Ð¸ÑĢ"
      ],
      [
        "»",
        "Ð"
      ],
      [
        "»",
        "Ð¸"
      ],
      [
        "¼",
        "Į"
      ],
      [
        "¼",
        "Ð¸ÑĢ"
      ],
      [
        "¼",
        "rich"
      ],
      [
        "½",
        "ł"
      ],
      [
        "½",
        "Ð°"
      ],
      [
        "½",
        "Ð¸Ð"
      ],
      [
        "½",
        "Î¹"
      ],
      [
        "¾",
        "ãģĻ"
      ],
      [
        "¿",
        "Ï"
      ],
      [
        "¿",
        "Ļ"
      ],
      [
        "¿",
        "ÑĢ"
      ],
      [
        "Ã",
        "ĺ"
      ],
      [
        "Ã",
        "£o"
      ],
      [
        "Ã",
        "±o"
      ],
      [
        "Ã",
        "³dÅ"
      ],
      [
        "Å",
        "ģ"
      ],
      [
        "Î",
        "±"
      ],
      [
        "Î",
        "ĵ"
      ],
      [
        "Î",
        "»Î"
      ],
      [
        "Î",
        "µÎ¹"
      ],
      [
        "Î",
        "ºÎ¬"
      ],
      [
        "Î",
        "¿Ï"
      ],
      [
        "Ï",
        "ģ"
      ],
      [
        "Ð",
        "Ł"
      ],
      [
        "Ð",
        "²Ðµ"
      ],
      [
        "Ð",
        "½Ð¸Ð"
      ],
      [
        "Ñ",
        "Ĩ"
      ],
      [
        "Ø",
        "Ń"
      ],
      [
        "Ø",
        "®Ø"
      ],
      [
        "Ø",
        "°Ø§"
      ],
      [
        "Ø",
        "¹Ø§"
      ],
      [
        "Ù",
        "ĩ"
      ],
      [
        "ä",
        "½ł"
      ],
      [
        "å",
        "Ī"
      ],
      [
        "å",
        "ī"
      ],
      [
        "å",
        "Ĵ"
      ],
      [
        "å",
        "¤©"
      ],
      [
        "å",
        "¥½"
      ],
      [
        "æ",
        "ĸ"
      ],
      [
        "æ",
        "Ĺ"
      ],
      [
        "æ",
        "ĺ"
      ],
      [
        "æ",
        "¨¡å"
      ],
      [
        "æ",
        "°Ĺãģ"
      ],
      [
        "æ",
        "¸ħå"
      ],
      [
        "ç",
        "ķ"
      ],
      [
        "ç",
        "´¢å¼"
      ],
      [
        "è",
        "¯ķ"
      ],
      [
        "è",
        "¿Ļ"
      ],
      [
        "é",
        "ĩ"
      ],
      [
        "ï",
        "¼Į"
      ],
      [
        "Ġ",
        "!"
      ],
      [
        "Ġ",
        "#"
      ],
      [
        "Ġ",
        "$"
      ],
      [
        "Ġ",
        "%"
      ],
      [
        "Ġ",
        ")"
      ],
      [
        "Ġ",
        ","
      ],
      [
        "Ġ",
        "."
      ],
      [
        "Ġ",
        "3"
      ],
      [
        "Ġ",
        "7"
      ],
      [
        "Ġ",
        "9"
      ],
      [
        "Ġ",
        ":"
      ],
      [
        "Ġ",
        ";"
      ],
      [
        "Ġ",
        "<"
      ],
      [
        "Ġ",
        "?"
      ],
      [
        "Ġ",
        "@"
      ],
      [
        "Ġ",
        "["
      ],
      [
        "Ġ",
        "\\"
      ],
      [
        "Ġ",
        "]"
      ],
      [
        "Ġ",
        "^"
      ],
      [
        "Ġ",
        "_"
      ],
      [
        "Ġ",
        "`"
      ],
      [
        "Ġ",
        "|"
      ],
      [
        "Ġ",
        "~"
      ],
      [
        "Ġ",
        "en"
      ],
      [
        "Ġ",
        "or"
      ],
      [
        "Ġ",
        "Ø§"
      ],
      [
        "Ġ",
        "Tensor"
      ],
      [
        "Ġ",
        "Ø¨Ø§"
      ],
      [
        "Ġ",
        "ÑĤÐ¾"
      ],
      [
        "Ġ",
        "32"
      ],
      [
        "Ġ",
        "Ïĥ"
      ],
      [
        "Ġ",
        "Cp"
      ]
    ]
  }
}